#include <cstdint>

#include "esp/output_dir/hello_world_model_data.h"

const unsigned int g_hello_world_model_data_size = 2512;
alignas(16) const unsigned char g_hello_world_model_data[] = {0x1c,0x0,0x0,0x0,0x54,0x46,0x4c,0x33,0x0,0x0,0x12,0x0,0x1c,0x0,0x4,0x0,0x8,0x0,0xc,0x0,0x10,0x0,0x14,0x0,0x0,0x0,0x18,0x0,0x12,0x0,0x0,0x0,0x3,0x0,0x0,0x0,0x60,0x9,0x0,0x0,0xa8,0x2,0x0,0x0,0x90,0x2,0x0,0x0,0x3c,0x0,0x0,0x0,0x4,0x0,0x0,0x0,0x1,0x0,0x0,0x0,0xc,0x0,0x0,0x0,0x8,0x0,0xc,0x0,0x4,0x0,0x8,0x0,0x8,0x0,0x0,0x0,0x8,0x0,0x0,0x0,0xb,0x0,0x0,0x0,0x13,0x0,0x0,0x0,0x6d,0x69,0x6e,0x5f,0x72,0x75,0x6e,0x74,0x69,0x6d,0x65,0x5f,0x76,0x65,0x72,0x73,0x69,0x6f,0x6e,0x0,0xc,0x0,0x0,0x0,0x48,0x2,0x0,0x0,0x34,0x2,0x0,0x0,0xc,0x2,0x0,0x0,0xfc,0x0,0x0,0x0,0xac,0x0,0x0,0x0,0x8c,0x0,0x0,0x0,0x3c,0x0,0x0,0x0,0x34,0x0,0x0,0x0,0x2c,0x0,0x0,0x0,0x24,0x0,0x0,0x0,0x1c,0x0,0x0,0x0,0x4,0x0,0x0,0x0,0xfe,0xfd,0xff,0xff,0x4,0x0,0x0,0x0,0x5,0x0,0x0,0x0,0x31,0x2e,0x35,0x2e,0x30,0x0,0x0,0x0,0x7c,0xfd,0xff,0xff,0x80,0xfd,0xff,0xff,0x84,0xfd,0xff,0xff,0x88,0xfd,0xff,0xff,0x22,0xfe,0xff,0xff,0x4,0x0,0x0,0x0,0x40,0x0,0x0,0x0,0x0,0x0,0x0,0x0,0xfc,0x4,0x0,0x0,0x9f,0xa,0x0,0x0,0x65,0x6,0x0,0x0,0x3d,0xf8,0xff,0xff,0x0,0x0,0x0,0x0,0xeb,0xa,0x0,0x0,0x2f,0xf8,0xff,0xff,0xe8,0x4,0x0,0x0,0x21,0xa,0x0,0x0,0x46,0xfe,0xff,0xff,0xc8,0x4,0x0,0x0,0x0,0x0,0x0,0x0,0xa3,0xf7,0xff,0xff,0x28,0xf9,0xff,0xff,0x9a,0x5,0x0,0x0,0x6e,0xfe,0xff,0xff,0x4,0x0,0x0,0x0,0x10,0x0,0x0,0x0,0x73,0x1c,0x11,0xe1,0xc,0x81,0xa5,0x43,0xfe,0xd5,0xd5,0xb2,0x60,0x77,0x19,0xdf,0x8a,0xfe,0xff,0xff,0x4,0x0,0x0,0x0,0x40,0x0,0x0,0x0,0x1,0x0,0x0,0x0,0x51,0xb,0x0,0x0,0x47,0xf6,0xff,0xff,0x0,0x0,0x0,0x0,0x1c,0xc,0x0,0x0,0x0,0x0,0x0,0x0,0x0,0x0,0x0,0x0,0x9b,0x5,0x0,0x0,0x0,0x0,0x0,0x0,0x0,0x0,0x0,0x0,0xe7,0x20,0x0,0x0,0x0,0x0,0x0,0x0,0x92,0x7,0x0,0x0,0xf4,0xf4,0xff,0xff,0x55,0xf0,0xff,0xff,0x0,0x0,0x0,0x0,0xd6,0xfe,0xff,0xff,0x4,0x0,0x0,0x0,0x0,0x1,0x0,0x0,0xee,0xfc,0x0,0xec,0x5,0x16,0xef,0xec,0xe6,0xf8,0x3,0x1,0x0,0xfa,0xf8,0xf5,0xda,0xeb,0x27,0x14,0xef,0xde,0xe2,0xda,0xf0,0xdf,0x32,0x6,0x1,0xe6,0xee,0xf9,0x0,0x16,0x7,0xe0,0xfe,0xff,0xe9,0x5,0xe7,0xef,0x81,0x1b,0x18,0xea,0xca,0x1,0xf,0x0,0xdb,0xf7,0xe,0xec,0x12,0x1e,0x4,0x13,0xb2,0xe7,0xfd,0x6,0xbb,0xe0,0xc,0xec,0xf0,0xdf,0xeb,0xf7,0x5,0x26,0x19,0xe4,0x70,0x1a,0xea,0x1e,0x34,0xdf,0x19,0xf3,0xf1,0x19,0xe,0x3,0x1b,0xe1,0xde,0x13,0xf6,0x19,0xff,0xf6,0x1a,0x17,0xf1,0x1c,0xdb,0x1a,0x1a,0x20,0xe6,0x19,0xf5,0xff,0x97,0xb,0x0,0x0,0xce,0xdf,0xd,0xf7,0x15,0xe4,0xed,0xfc,0xd,0xe9,0xfb,0xec,0x5c,0xfc,0x1d,0x2,0x58,0xe3,0xe0,0xf4,0x15,0xec,0xf9,0x0,0x13,0x5,0xec,0xc,0x1c,0x14,0xc,0xe9,0xa,0xf4,0x18,0x0,0xd7,0x5,0x27,0x2,0x15,0xea,0xea,0x2,0x9b,0x0,0xc,0xfa,0xe9,0xea,0xfe,0x1,0x14,0xfd,0xb,0x2,0xf0,0xef,0x6,0xee,0x1,0xd,0x6,0xe7,0xf7,0x11,0xf5,0xa,0xf9,0xf1,0x23,0xff,0xd,0xf2,0xec,0x11,0x26,0x1d,0xf2,0xea,0x28,0x18,0xe0,0xfb,0xf3,0xf4,0x5,0x1c,0x1d,0xfb,0xfd,0x1e,0xfc,0x11,0xe8,0x6,0x9,0x3,0x12,0xf2,0x35,0xfb,0xdd,0x1b,0xf9,0xef,0xf3,0xe7,0x6f,0xc,0x1d,0x0,0x43,0xfd,0xd,0xf1,0xa,0x19,0x1a,0xfa,0xe0,0x18,0x1e,0x13,0x37,0x1c,0x12,0xec,0x3a,0xc,0xb6,0xcb,0xe6,0x13,0xf7,0xeb,0xf1,0x5,0x1b,0xfa,0x19,0xe5,0xec,0xcf,0xc,0xf4,0xe2,0xff,0xff,0xff,0x4,0x0,0x0,0x0,0x10,0x0,0x0,0x0,0x21,0xa2,0x8c,0xc9,0x5f,0x1d,0xce,0x41,0x9f,0xcd,0x20,0xb1,0xdf,0x53,0x2f,0x81,0x0,0x0,0x6,0x0,0x8,0x0,0x4,0x0,0x6,0x0,0x0,0x0,0x4,0x0,0x0,0x0,0x4,0x0,0x0,0x0,0xe2,0xee,0xff,0xff,0x80,0xff,0xff,0xff,0xf,0x0,0x0,0x0,0x54,0x4f,0x43,0x4f,0x20,0x43,0x6f,0x6e,0x76,0x65,0x72,0x74,0x65,0x64,0x2e,0x0,0x1,0x0,0x0,0x0,0x4,0x0,0x0,0x0,0xbc,0xf9,0xff,0xff,0x48,0x1,0x0,0x0,0x3c,0x1,0x0,0x0,0x30,0x1,0x0,0x0,0x4,0x0,0x0,0x0,0x5,0x0,0x0,0x0,0x4,0x1,0x0,0x0,0xb8,0x0,0x0,0x0,0x70,0x0,0x0,0x0,0x28,0x0,0x0,0x0,0x4,0x0,0x0,0x0,0x1a,0xff,0xff,0xff,0x2,0x0,0x0,0x0,0x10,0x0,0x0,0x0,0x4,0x0,0x0,0x0,0x1,0x0,0x0,0x0,0xb,0x0,0x0,0x0,0x1,0x0,0x0,0x0,0x0,0x0,0x0,0x0,0xca,0xff,0xff,0xff,0x0,0x0,0x0,0x8,0x1c,0x0,0x0,0x0,0x10,0x0,0x0,0x0,0x8,0x0,0x0,0x0,0x4,0x0,0x4,0x0,0x4,0x0,0x0,0x0,0x1,0x0,0x0,0x0,0x0,0x0,0x0,0x0,0x3,0x0,0x0,0x0,0x7,0x0,0x0,0x0,0x8,0x0,0x0,0x0,0x9,0x0,0x0,0x0,0x0,0x0,0xe,0x0,0x14,0x0,0x0,0x0,0x8,0x0,0xc,0x0,0x7,0x0,0x10,0x0,0xe,0x0,0x0,0x0,0x0,0x0,0x0,0x8,0x1c,0x0,0x0,0x0,0x10,0x0,0x0,0x0,0x4,0x0,0x0,0x0,0xba,0xff,0xff,0xff,0x0,0x0,0x0,0x1,0x1,0x0,0x0,0x0,0x7,0x0,0x0,0x0,0x3,0x0,0x0,0x0,0x4,0x0,0x0,0x0,0x5,0x0,0x0,0x0,0x6,0x0,0x0,0x0,0x0,0x0,0xe,0x0,0x16,0x0,0x0,0x0,0x8,0x0,0xc,0x0,0x7,0x0,0x10,0x0,0xe,0x0,0x0,0x0,0x0,0x0,0x0,0x8,0x24,0x0,0x0,0x0,0x18,0x0,0x0,0x0,0xc,0x0,0x0,0x0,0x0,0x0,0x6,0x0,0x8,0x0,0x7,0x0,0x6,0x0,0x0,0x0,0x0,0x0,0x0,0x1,0x1,0x0,0x0,0x0,0x4,0x0,0x0,0x0,0x3,0x0,0x0,0x0,0x1,0x0,0x0,0x0,0x2,0x0,0x0,0x0,0x3,0x0,0x0,0x0,0x0,0x0,0xa,0x0,0x10,0x0,0x4,0x0,0x8,0x0,0xc,0x0,0xa,0x0,0x0,0x0,0x1,0x0,0x0,0x0,0x10,0x0,0x0,0x0,0x4,0x0,0x0,0x0,0x1,0x0,0x0,0x0,0x1,0x0,0x0,0x0,0x1,0x0,0x0,0x0,0xa,0x0,0x0,0x0,0x1,0x0,0x0,0x0,0xb,0x0,0x0,0x0,0x1,0x0,0x0,0x0,0xa,0x0,0x0,0x0,0xc,0x0,0x0,0x0,0xdc,0x4,0x0,0x0,0x54,0x4,0x0,0x0,0xc4,0x3,0x0,0x0,0x54,0x3,0x0,0x0,0xd0,0x2,0x0,0x0,0x4c,0x2,0x0,0x0,0xe0,0x1,0x0,0x0,0x5c,0x1,0x0,0x0,0xd8,0x0,0x0,0x0,0x6c,0x0,0x0,0x0,0x3c,0x0,0x0,0x0,0x4,0x0,0x0,0x0,0xd8,0xff,0xff,0xff,0x18,0x0,0x0,0x0,0x4,0x0,0x0,0x0,0x8,0x0,0x0,0x0,0x49,0x64,0x65,0x6e,0x74,0x69,0x74,0x79,0x0,0x0,0x0,0x0,0x2,0x0,0x0,0x0,0x1,0x0,0x0,0x0,0x1,0x0,0x0,0x0,0xc,0x0,0xc,0x0,0x4,0x0,0x0,0x0,0x0,0x0,0x8,0x0,0xc,0x0,0x0,0x0,0x1c,0x0,0x0,0x0,0x4,0x0,0x0,0x0,0xd,0x0,0x0,0x0,0x64,0x65,0x6e,0x73,0x65,0x5f,0x32,0x5f,0x69,0x6e,0x70,0x75,0x74,0x0,0x0,0x0,0x2,0x0,0x0,0x0,0x1,0x0,0x0,0x0,0x1,0x0,0x0,0x0,0xc2,0xfb,0xff,0xff,0x0,0x0,0x0,0x2,0x58,0x0,0x0,0x0,0x1,0x0,0x0,0x0,0x28,0x0,0x0,0x0,0x4,0x0,0x0,0x0,0xc4,0xfc,0xff,0xff,0x14,0x0,0x0,0x0,0x4,0x0,0x0,0x0,0x1,0x0,0x0,0x0,0x0,0x0,0x0,0x0,0x0,0x0,0x0,0x0,0x1,0x0,0x0,0x0,0xba,0x2b,0x4f,0x38,0x20,0x0,0x0,0x0,0x73,0x65,0x71,0x75,0x65,0x6e,0x74,0x69,0x61,0x6c,0x5f,0x31,0x2f,0x64,0x65,0x6e,0x73,0x65,0x5f,0x34,0x2f,0x4d,0x61,0x74,0x4d,0x75,0x6c,0x5f,0x62,0x69,0x61,0x73,0x0,0x0,0x0,0x0,0x1,0x0,0x0,0x0,0x1,0x0,0x0,0x0,0x2a,0xfc,0xff,0xff,0x0,0x0,0x0,0x9,0x6c,0x0,0x0,0x0,0x2,0x0,0x0,0x0,0x28,0x0,0x0,0x0,0x4,0x0,0x0,0x0,0x2c,0xfd,0xff,0xff,0x14,0x0,0x0,0x0,0x4,0x0,0x0,0x0,0x1,0x0,0x0,0x0,0x0,0x0,0x0,0x0,0x0,0x0,0x0,0x0,0x1,0x0,0x0,0x0,0xb9,0x36,0xb,0x3c,0x34,0x0,0x0,0x0,0x73,0x65,0x71,0x75,0x65,0x6e,0x74,0x69,0x61,0x6c,0x5f,0x31,0x2f,0x64,0x65,0x6e,0x73,0x65,0x5f,0x34,0x2f,0x4d,0x61,0x74,0x4d,0x75,0x6c,0x2f,0x52,0x65,0x61,0x64,0x56,0x61,0x72,0x69,0x61,0x62,0x6c,0x65,0x4f,0x70,0x2f,0x74,0x72,0x61,0x6e,0x73,0x70,0x6f,0x73,0x65,0x0,0x0,0x0,0x0,0x2,0x0,0x0,0x0,0x1,0x0,0x0,0x0,0x10,0x0,0x0,0x0,0xaa,0xfc,0xff,0xff,0x0,0x0,0x0,0x9,0x6c,0x0,0x0,0x0,0x9,0x0,0x0,0x0,0x44,0x0,0x0,0x0,0x4,0x0,0x0,0x0,0x9c,0xfc,0xff,0xff,0x30,0x0,0x0,0x0,0x24,0x0,0x0,0x0,0x18,0x0,0x0,0x0,0x4,0x0,0x0,0x0,0x1,0x0,0x0,0x0,0x80,0xff,0xff,0xff,0xff,0xff,0xff,0xff,0x0,0x0,0x0,0x0,0x1,0x0,0x0,0x0,0xaa,0x7b,0xbe,0x3b,0x1,0x0,0x0,0x0,0x2e,0xbd,0xbd,0x3f,0x1,0x0,0x0,0x0,0x0,0x0,0x0,0x0,0x19,0x0,0x0,0x0,0x73,0x65,0x71,0x75,0x65,0x6e,0x74,0x69,0x61,0x6c,0x5f,0x31,0x2f,0x64,0x65,0x6e,0x73,0x65,0x5f,0x33,0x2f,0x52,0x65,0x6c,0x75,0x0,0x0,0x0,0x2,0x0,0x0,0x0,0x1,0x0,0x0,0x0,0x10,0x0,0x0,0x0,0x2a,0xfd,0xff,0xff,0x0,0x0,0x0,0x2,0x58,0x0,0x0,0x0,0x6,0x0,0x0,0x0,0x28,0x0,0x0,0x0,0x4,0x0,0x0,0x0,0x2c,0xfe,0xff,0xff,0x14,0x0,0x0,0x0,0x4,0x0,0x0,0x0,0x1,0x0,0x0,0x0,0x0,0x0,0x0,0x0,0x0,0x0,0x0,0x0,0x1,0x0,0x0,0x0,0xe3,0x4,0x20,0x39,0x20,0x0,0x0,0x0,0x73,0x65,0x71,0x75,0x65,0x6e,0x74,0x69,0x61,0x6c,0x5f,0x31,0x2f,0x64,0x65,0x6e,0x73,0x65,0x5f,0x33,0x2f,0x4d,0x61,0x74,0x4d,0x75,0x6c,0x5f,0x62,0x69,0x61,0x73,0x0,0x0,0x0,0x0,0x1,0x0,0x0,0x0,0x10,0x0,0x0,0x0,0x92,0xfd,0xff,0xff,0x0,0x0,0x0,0x9,0x6c,0x0,0x0,0x0,0x3,0x0,0x0,0x0,0x28,0x0,0x0,0x0,0x4,0x0,0x0,0x0,0x94,0xfe,0xff,0xff,0x14,0x0,0x0,0x0,0x4,0x0,0x0,0x0,0x1,0x0,0x0,0x0,0x0,0x0,0x0,0x0,0x0,0x0,0x0,0x0,0x1,0x0,0x0,0x0,0xe8,0x76,0x51,0x3c,0x34,0x0,0x0,0x0,0x73,0x65,0x71,0x75,0x65,0x6e,0x74,0x69,0x61,0x6c,0x5f,0x31,0x2f,0x64,0x65,0x6e,0x73,0x65,0x5f,0x33,0x2f,0x4d,0x61,0x74,0x4d,0x75,0x6c,0x2f,0x52,0x65,0x61,0x64,0x56,0x61,0x72,0x69,0x61,0x62,0x6c,0x65,0x4f,0x70,0x2f,0x74,0x72,0x61,0x6e,0x73,0x70,0x6f,0x73,0x65,0x0,0x0,0x0,0x0,0x2,0x0,0x0,0x0,0x10,0x0,0x0,0x0,0x10,0x0,0x0,0x0,0x12,0xfe,0xff,0xff,0x0,0x0,0x0,0x9,0x6c,0x0,0x0,0x0,0x7,0x0,0x0,0x0,0x44,0x0,0x0,0x0,0x4,0x0,0x0,0x0,0x4,0xfe,0xff,0xff,0x30,0x0,0x0,0x0,0x24,0x0,0x0,0x0,0x18,0x0,0x0,0x0,0x4,0x0,0x0,0x0,0x1,0x0,0x0,0x0,0x80,0xff,0xff,0xff,0xff,0xff,0xff,0xff,0x0,0x0,0x0,0x0,0x1,0x0,0x0,0x0,0xd2,0x91,0x43,0x3c,0x1,0x0,0x0,0x0,0x40,0xce,0x42,0x40,0x1,0x0,0x0,0x0,0x0,0x0,0x0,0x0,0x19,0x0,0x0,0x0,0x73,0x65,0x71,0x75,0x65,0x6e,0x74,0x69,0x61,0x6c,0x5f,0x31,0x2f,0x64,0x65,0x6e,0x73,0x65,0x5f,0x32,0x2f,0x52,0x65,0x6c,0x75,0x0,0x0,0x0,0x2,0x0,0x0,0x0,0x1,0x0,0x0,0x0,0x10,0x0,0x0,0x0,0x92,0xfe,0xff,0xff,0x0,0x0,0x0,0x2,0x5c,0x0,0x0,0x0,0x4,0x0,0x0,0x0,0x2c,0x0,0x0,0x0,0x4,0x0,0x0,0x0,0x94,0xff,0xff,0xff,0x18,0x0,0x0,0x0,0x4,0x0,0x0,0x0,0x1,0x0,0x0,0x0,0x0,0x0,0x0,0x0,0x0,0x0,0x0,0x0,0x0,0x0,0x0,0x0,0x1,0x0,0x0,0x0,0x28,0xb3,0xd9,0x38,0x20,0x0,0x0,0x0,0x73,0x65,0x71,0x75,0x65,0x6e,0x74,0x69,0x61,0x6c,0x5f,0x31,0x2f,0x64,0x65,0x6e,0x73,0x65,0x5f,0x32,0x2f,0x4d,0x61,0x74,0x4d,0x75,0x6c,0x5f,0x62,0x69,0x61,0x73,0x0,0x0,0x0,0x0,0x1,0x0,0x0,0x0,0x10,0x0,0x0,0x0,0xfe,0xfe,0xff,0xff,0x0,0x0,0x0,0x9,0x78,0x0,0x0,0x0,0x5,0x0,0x0,0x0,0x34,0x0,0x0,0x0,0x10,0x0,0x0,0x0,0xc,0x0,0xc,0x0,0x0,0x0,0x0,0x0,0x4,0x0,0x8,0x0,0xc,0x0,0x0,0x0,0x14,0x0,0x0,0x0,0x4,0x0,0x0,0x0,0x1,0x0,0x0,0x0,0x0,0x0,0x0,0x0,0x0,0x0,0x0,0x0,0x1,0x0,0x0,0x0,0xd5,0x6b,0x8a,0x3b,0x34,0x0,0x0,0x0,0x73,0x65,0x71,0x75,0x65,0x6e,0x74,0x69,0x61,0x6c,0x5f,0x31,0x2f,0x64,0x65,0x6e,0x73,0x65,0x5f,0x32,0x2f,0x4d,0x61,0x74,0x4d,0x75,0x6c,0x2f,0x52,0x65,0x61,0x64,0x56,0x61,0x72,0x69,0x61,0x62,0x6c,0x65,0x4f,0x70,0x2f,0x74,0x72,0x61,0x6e,0x73,0x70,0x6f,0x73,0x65,0x0,0x0,0x0,0x0,0x2,0x0,0x0,0x0,0x10,0x0,0x0,0x0,0x1,0x0,0x0,0x0,0x8a,0xff,0xff,0xff,0x0,0x0,0x0,0x9,0x60,0x0,0x0,0x0,0x8,0x0,0x0,0x0,0x40,0x0,0x0,0x0,0x4,0x0,0x0,0x0,0x7c,0xff,0xff,0xff,0x2c,0x0,0x0,0x0,0x20,0x0,0x0,0x0,0x14,0x0,0x0,0x0,0x4,0x0,0x0,0x0,0x1,0x0,0x0,0x0,0x80,0xff,0xff,0xff,0xff,0xff,0xff,0xff,0x1,0x0,0x0,0x0,0x5d,0x4f,0xc9,0x3c,0x1,0x0,0x0,0x0,0xe,0x86,0xc8,0x40,0x1,0x0,0x0,0x0,0x0,0x0,0x0,0x0,0x12,0x0,0x0,0x0,0x64,0x65,0x6e,0x73,0x65,0x5f,0x32,0x5f,0x69,0x6e,0x70,0x75,0x74,0x5f,0x69,0x6e,0x74,0x38,0x0,0x0,0x2,0x0,0x0,0x0,0x1,0x0,0x0,0x0,0x1,0x0,0x0,0x0,0x0,0x0,0xe,0x0,0x18,0x0,0x8,0x0,0x7,0x0,0xc,0x0,0x10,0x0,0x14,0x0,0xe,0x0,0x0,0x0,0x0,0x0,0x0,0x9,0x6c,0x0,0x0,0x0,0xa,0x0,0x0,0x0,0x50,0x0,0x0,0x0,0x10,0x0,0x0,0x0,0xc,0x0,0x14,0x0,0x4,0x0,0x8,0x0,0xc,0x0,0x10,0x0,0xc,0x0,0x0,0x0,0x30,0x0,0x0,0x0,0x24,0x0,0x0,0x0,0x18,0x0,0x0,0x0,0x4,0x0,0x0,0x0,0x1,0x0,0x0,0x0,0x2,0x0,0x0,0x0,0x0,0x0,0x0,0x0,0x0,0x0,0x0,0x0,0x1,0x0,0x0,0x0,0x1a,0xde,0xa,0x3c,0x1,0x0,0x0,0x0,0x66,0x64,0x87,0x3f,0x1,0x0,0x0,0x0,0x13,0x42,0x8d,0xbf,0xd,0x0,0x0,0x0,0x49,0x64,0x65,0x6e,0x74,0x69,0x74,0x79,0x5f,0x69,0x6e,0x74,0x38,0x0,0x0,0x0,0x2,0x0,0x0,0x0,0x1,0x0,0x0,0x0,0x1,0x0,0x0,0x0,0x3,0x0,0x0,0x0,0x3c,0x0,0x0,0x0,0x28,0x0,0x0,0x0,0x10,0x0,0x0,0x0,0x0,0x0,0xa,0x0,0xe,0x0,0x7,0x0,0x0,0x0,0x8,0x0,0xa,0x0,0x0,0x0,0x0,0x0,0x0,0x6,0x2,0x0,0x0,0x0,0x0,0x0,0x6,0x0,0x6,0x0,0x5,0x0,0x6,0x0,0x0,0x0,0x0,0x72,0xa,0x0,0xc,0x0,0x7,0x0,0x0,0x0,0x8,0x0,0xa,0x0,0x0,0x0,0x0,0x0,0x0,0x9,0x4,0x0,0x0,0x0};
